/* ============ 720P ============ */

static const uint32_t param_adr_centre_w_dis_720P[31] = {
	0x09bc, 0x0725, 0x05f0, 0x0525, 0x048d, 0x0414, 0x03af, 0x0359,
	0x030d, 0x02ca, 0x028e, 0x0257, 0x0224, 0x01f6, 0x01cb, 0x01a3,
	0x017d, 0x0159, 0x0138, 0x0118, 0x00fa, 0x00dd, 0x00c2, 0x00a7,
	0x008e, 0x0076, 0x005f, 0x0048, 0x0033, 0x001e, 0x000a
};

static const uint32_t param_adr_weight_20_720P[32] = {
	0x0000, 0x0000, 0x0000, 0x0000, 0x0000, 0x0000, 0x0000, 0x0000,
	0x0000, 0x0001, 0x0001, 0x0001, 0x0001, 0x0001, 0x0001, 0x0001,
	0x0002, 0x0002, 0x0002, 0x0003, 0x0003, 0x0003, 0x0004, 0x0004,
	0x0004, 0x0005, 0x0005, 0x0005, 0x0005, 0x0005, 0x0005, 0x0005
};

static const uint32_t param_adr_weight_02_720P[32] = {
	0x0000, 0x0000, 0x0000, 0x0000, 0x0000, 0x0000, 0x0000, 0x0000,
	0x0000, 0x0000, 0x0000, 0x0000, 0x0000, 0x0001, 0x0001, 0x0001,
	0x0001, 0x0001, 0x0001, 0x0001, 0x0002, 0x0002, 0x0002, 0x0002,
	0x0002, 0x0002, 0x0002, 0x0002, 0x0002, 0x0002, 0x0002, 0x0002
};

static const uint32_t param_adr_weight_12_720P[32] = {
	0x0000, 0x0000, 0x0000, 0x0000, 0x0000, 0x0000, 0x0000, 0x0000,
	0x0000, 0x0000, 0x0001, 0x0001, 0x0001, 0x0001, 0x0001, 0x0001,
	0x0001, 0x0002, 0x0002, 0x0002, 0x0002, 0x0002, 0x0002, 0x0002,
	0x0002, 0x0002, 0x0002, 0x0002, 0x0002, 0x0002, 0x0002, 0x0002
};

static const uint32_t param_adr_weight_22_720P[32] = {
	0x0000, 0x0000, 0x0000, 0x0000, 0x0000, 0x0000, 0x0000, 0x0000,
	0x0000, 0x0000, 0x0000, 0x0000, 0x0000, 0x0000, 0x0000, 0x0000,
	0x0000, 0x0000, 0x0000, 0x0000, 0x0000, 0x0000, 0x0000, 0x0000,
	0x0000, 0x0000, 0x0000, 0x0000, 0x0000, 0x0000, 0x0000, 0x0000
};

static const uint32_t param_adr_weight_21_720P[32] = {
	0x0000, 0x0000, 0x0000, 0x0000, 0x0000, 0x0000, 0x0001, 0x0001,
	0x0001, 0x0001, 0x0001, 0x0001, 0x0002, 0x0002, 0x0002, 0x0002,
	0x0003, 0x0003, 0x0003, 0x0003, 0x0003, 0x0003, 0x0003, 0x0003,
	0x0003, 0x0003, 0x0003, 0x0003, 0x0003, 0x0003, 0x0003, 0x0003
};

/* ============ 3M ============ */

static const uint32_t param_adr_centre_w_dis_3M[31] = {
	0x1fbd, 0x174b, 0x135d, 0x10c6, 0x0ed8, 0x0d4d, 0x0c04, 0x0aea,
	0x09f3, 0x0918, 0x0853, 0x07a0, 0x06fc, 0x0665, 0x05d8, 0x0555,
	0x04da, 0x0466, 0x03f8, 0x0391, 0x032e, 0x02d0, 0x0277, 0x0221,
	0x01cf, 0x0181, 0x0135, 0x00ec, 0x00a6, 0x0062, 0x0020
};

static const uint32_t param_adr_weight_20_3M[32] = {
	0x0000, 0x0000, 0x0000, 0x0000, 0x0000, 0x0000, 0x0000, 0x0000,
	0x0000, 0x0001, 0x0001, 0x0001, 0x0001, 0x0001, 0x0001, 0x0002,
	0x0002, 0x0002, 0x0002, 0x0003, 0x0003, 0x0003, 0x0004, 0x0004,
	0x0004, 0x0005, 0x0005, 0x0005, 0x0005, 0x0005, 0x0005, 0x0005
};

static const uint32_t param_adr_weight_02_3M[32] = {
	0x0000, 0x0000, 0x0000, 0x0000, 0x0000, 0x0000, 0x0000, 0x0000,
	0x0000, 0x0000, 0x0000, 0x0000, 0x0000, 0x0001, 0x0001, 0x0001,
	0x0001, 0x0001, 0x0001, 0x0001, 0x0002, 0x0002, 0x0002, 0x0002,
	0x0002, 0x0002, 0x0002, 0x0002, 0x0002, 0x0002, 0x0002, 0x0002
};

static const uint32_t param_adr_weight_12_3M[32] = {
	0x0000, 0x0000, 0x0000, 0x0000, 0x0000, 0x0000, 0x0000, 0x0000,
	0x0000, 0x0000, 0x0001, 0x0001, 0x0001, 0x0001, 0x0001, 0x0001,
	0x0001, 0x0001, 0x0002, 0x0002, 0x0002, 0x0002, 0x0002, 0x0002,
	0x0002, 0x0002, 0x0002, 0x0002, 0x0002, 0x0002, 0x0002, 0x0002
};

static const uint32_t param_adr_weight_22_3M[32] = {
	0x0000, 0x0000, 0x0000, 0x0000, 0x0000, 0x0000, 0x0000, 0x0000,
	0x0000, 0x0000, 0x0000, 0x0000, 0x0000, 0x0000, 0x0000, 0x0000,
	0x0000, 0x0000, 0x0000, 0x0000, 0x0000, 0x0000, 0x0000, 0x0000,
	0x0000, 0x0000, 0x0000, 0x0000, 0x0000, 0x0000, 0x0000, 0x0000
};

static const uint32_t param_adr_weight_21_3M[32] = {
	0x0000, 0x0000, 0x0000, 0x0000, 0x0000, 0x0000, 0x0001, 0x0001,
	0x0001, 0x0001, 0x0001, 0x0001, 0x0002, 0x0002, 0x0002, 0x0002,
	0x0003, 0x0003, 0x0003, 0x0003, 0x0003, 0x0003, 0x0003, 0x0003,
	0x0003, 0x0003, 0x0003, 0x0003, 0x0003, 0x0003, 0x0003, 0x0003
};

/* ============ 5M ============ */

static const uint32_t param_adr_centre_w_dis_5M[31] = {
	0x3537, 0x270c, 0x2076, 0x1c20, 0x18e2, 0x164c, 0x1424, 0x124c,
	0x10af, 0x0f40, 0x0df5, 0x0cc9, 0x0bb6, 0x0ab8, 0x09cc, 0x08f0,
	0x0822, 0x075f, 0x06a8, 0x05fa, 0x0555, 0x04b8, 0x0422, 0x0392,
	0x0309, 0x0285, 0x0206, 0x018b, 0x0116, 0x00a4, 0x0036
};

static const uint32_t param_adr_weight_20_5M[32] = {
	0x0000, 0x0000, 0x0000, 0x0000, 0x0000, 0x0000, 0x0000, 0x0000,
	0x0000, 0x0000, 0x0000, 0x0000, 0x0001, 0x0001, 0x0001, 0x0001,
	0x0001, 0x0001, 0x0001, 0x0002, 0x0002, 0x0002, 0x0002, 0x0002,
	0x0003, 0x0003, 0x0003, 0x0003, 0x0003, 0x0003, 0x0003, 0x0003
};

static const uint32_t param_adr_weight_02_5M[32] = {
	0x0000, 0x0000, 0x0000, 0x0000, 0x0000, 0x0000, 0x0000, 0x0000,
	0x0000, 0x0000, 0x0001, 0x0001, 0x0001, 0x0001, 0x0001, 0x0001,
	0x0002, 0x0002, 0x0002, 0x0002, 0x0003, 0x0003, 0x0003, 0x0004,
	0x0004, 0x0004, 0x0004, 0x0004, 0x0004, 0x0004, 0x0004, 0x0004
};

static const uint32_t param_adr_weight_12_5M[32] = {
	0x0000, 0x0000, 0x0000, 0x0000, 0x0000, 0x0000, 0x0000, 0x0001,
	0x0001, 0x0001, 0x0001, 0x0001, 0x0001, 0x0002, 0x0002, 0x0002,
	0x0002, 0x0003, 0x0003, 0x0003, 0x0003, 0x0003, 0x0003, 0x0003,
	0x0003, 0x0003, 0x0003, 0x0003, 0x0003, 0x0003, 0x0003, 0x0003
};

static const uint32_t param_adr_weight_22_5M[32] = {
	0x0000, 0x0000, 0x0000, 0x0000, 0x0000, 0x0000, 0x0000, 0x0000,
	0x0000, 0x0000, 0x0000, 0x0000, 0x0000, 0x0000, 0x0000, 0x0000,
	0x0000, 0x0000, 0x0000, 0x0000, 0x0000, 0x0000, 0x0000, 0x0000,
	0x0000, 0x0000, 0x0000, 0x0000, 0x0000, 0x0000, 0x0000, 0x0000
};

static const uint32_t param_adr_weight_21_5M[32] = {
	0x0000, 0x0000, 0x0000, 0x0000, 0x0000, 0x0000, 0x0000, 0x0000,
	0x0000, 0x0001, 0x0001, 0x0001, 0x0001, 0x0001, 0x0001, 0x0001,
	0x0001, 0x0002, 0x0002, 0x0002, 0x0002, 0x0002, 0x0002, 0x0002,
	0x0002, 0x0002, 0x0002, 0x0002, 0x0002, 0x0002, 0x0002, 0x0002
};

/* ============ 4M ============ */

static const uint32_t param_adr_centre_w_dis_4M[31] = {
	0x2737, 0x1cc7, 0x17ec, 0x14ba, 0x1257, 0x106e, 0x0ed8, 0x0d7c,
	0x0c4c, 0x0b3d, 0x0a49, 0x096c, 0x08a1, 0x07e6, 0x0738, 0x0696,
	0x05fe, 0x056f, 0x04e8, 0x0468, 0x03ee, 0x037a, 0x030c, 0x02a2,
	0x023c, 0x01db, 0x017e, 0x0123, 0x00cd, 0x0079, 0x0028
};

static const uint32_t param_adr_weight_20_4M[32] = {
	0x0000, 0x0000, 0x0000, 0x0000, 0x0000, 0x0000, 0x0000, 0x0000,
	0x0000, 0x0001, 0x0001, 0x0001, 0x0001, 0x0001, 0x0001, 0x0002,
	0x0002, 0x0002, 0x0002, 0x0003, 0x0003, 0x0003, 0x0004, 0x0004,
	0x0004, 0x0005, 0x0005, 0x0005, 0x0005, 0x0005, 0x0005, 0x0005
};

static const uint32_t param_adr_weight_02_4M[32] = {
	0x0000, 0x0000, 0x0000, 0x0000, 0x0000, 0x0000, 0x0000, 0x0000,
	0x0000, 0x0000, 0x0000, 0x0000, 0x0000, 0x0001, 0x0001, 0x0001,
	0x0001, 0x0001, 0x0001, 0x0001, 0x0002, 0x0002, 0x0002, 0x0002,
	0x0002, 0x0002, 0x0002, 0x0002, 0x0002, 0x0002, 0x0002, 0x0002
};

static const uint32_t param_adr_weight_12_4M[32] = {
	0x0000, 0x0000, 0x0000, 0x0000, 0x0000, 0x0000, 0x0000, 0x0000,
	0x0000, 0x0000, 0x0001, 0x0001, 0x0001, 0x0001, 0x0001, 0x0001,
	0x0001, 0x0002, 0x0002, 0x0002, 0x0002, 0x0002, 0x0002, 0x0002,
	0x0002, 0x0002, 0x0002, 0x0002, 0x0002, 0x0002, 0x0002, 0x0002
};

static const uint32_t param_adr_weight_22_4M[32] = {
	0x0000, 0x0000, 0x0000, 0x0000, 0x0000, 0x0000, 0x0000, 0x0000,
	0x0000, 0x0000, 0x0000, 0x0000, 0x0000, 0x0000, 0x0000, 0x0000,
	0x0000, 0x0000, 0x0000, 0x0000, 0x0000, 0x0000, 0x0000, 0x0000,
	0x0000, 0x0000, 0x0000, 0x0000, 0x0000, 0x0000, 0x0000, 0x0000
};

static const uint32_t param_adr_weight_21_4M[32] = {
	0x0000, 0x0000, 0x0000, 0x0000, 0x0000, 0x0000, 0x0001, 0x0001,
	0x0001, 0x0001, 0x0001, 0x0001, 0x0002, 0x0002, 0x0002, 0x0002,
	0x0003, 0x0003, 0x0003, 0x0004, 0x0004, 0x0004, 0x0004, 0x0004,
	0x0004, 0x0004, 0x0004, 0x0004, 0x0004, 0x0004, 0x0004, 0x0004
};

/* ============ 5MA ============ */

static const uint32_t param_adr_centre_w_dis_5MA[31] = {
	0x33ea, 0x2618, 0x1fab, 0x1b70, 0x1846, 0x15c0, 0x13a6, 0x11da,
	0x1046, 0x0ee0, 0x0d9e, 0x0c79, 0x0b6d, 0x0a75, 0x098f, 0x08b8,
	0x07ef, 0x0731, 0x067e, 0x05d5, 0x0534, 0x049a, 0x0408, 0x037c,
	0x02f6, 0x0275, 0x01f9, 0x0182, 0x010f, 0x00a0, 0x0034
};

static const uint32_t param_adr_weight_20_5MA[32] = {
	0x0000, 0x0000, 0x0000, 0x0000, 0x0000, 0x0000, 0x0000, 0x0000,
	0x0000, 0x0000, 0x0000, 0x0000, 0x0001, 0x0001, 0x0001, 0x0001,
	0x0001, 0x0001, 0x0001, 0x0002, 0x0002, 0x0002, 0x0002, 0x0002,
	0x0002, 0x0002, 0x0002, 0x0002, 0x0002, 0x0002, 0x0002, 0x0002
};

static const uint32_t param_adr_weight_02_5MA[32] = {
	0x0000, 0x0000, 0x0000, 0x0000, 0x0000, 0x0000, 0x0000, 0x0000,
	0x0000, 0x0001, 0x0001, 0x0001, 0x0001, 0x0001, 0x0001, 0x0001,
	0x0002, 0x0002, 0x0002, 0x0002, 0x0003, 0x0003, 0x0003, 0x0004,
	0x0004, 0x0004, 0x0004, 0x0004, 0x0004, 0x0004, 0x0004, 0x0004
};

static const uint32_t param_adr_weight_12_5MA[32] = {
	0x0000, 0x0000, 0x0000, 0x0000, 0x0000, 0x0000, 0x0000, 0x0001,
	0x0001, 0x0001, 0x0001, 0x0001, 0x0001, 0x0002, 0x0002, 0x0002,
	0x0002, 0x0003, 0x0003, 0x0003, 0x0003, 0x0003, 0x0003, 0x0003,
	0x0003, 0x0003, 0x0003, 0x0003, 0x0003, 0x0003, 0x0003, 0x0003
};

static const uint32_t param_adr_weight_22_5MA[32] = {
	0x0000, 0x0000, 0x0000, 0x0000, 0x0000, 0x0000, 0x0000, 0x0000,
	0x0000, 0x0000, 0x0000, 0x0000, 0x0000, 0x0000, 0x0000, 0x0000,
	0x0000, 0x0000, 0x0000, 0x0000, 0x0000, 0x0000, 0x0000, 0x0000,
	0x0000, 0x0000, 0x0000, 0x0000, 0x0000, 0x0000, 0x0000, 0x0000
};

static const uint32_t param_adr_weight_21_5MA[32] = {
	0x0000, 0x0000, 0x0000, 0x0000, 0x0000, 0x0000, 0x0000, 0x0000,
	0x0000, 0x0001, 0x0001, 0x0001, 0x0001, 0x0001, 0x0001, 0x0001,
	0x0001, 0x0002, 0x0002, 0x0002, 0x0002, 0x0002, 0x0002, 0x0002,
	0x0002, 0x0002, 0x0002, 0x0002, 0x0002, 0x0002, 0x0002, 0x0002
};

/* ============ 1728_972 ============ */

static const uint32_t param_adr_centre_w_dis_1728_972[31] = {
	0x11ce, 0x0d11, 0x0add, 0x0969, 0x0854, 0x0776, 0x06bd, 0x061f,
	0x0595, 0x051a, 0x04ac, 0x0447, 0x03eb, 0x0396, 0x0347, 0x02fe,
	0x02b9, 0x0278, 0x023a, 0x0200, 0x01c9, 0x0194, 0x0162, 0x0132,
	0x0104, 0x00d8, 0x00ad, 0x0084, 0x005d, 0x0037, 0x0012
};

static const uint32_t param_adr_weight_20_1728_972[32] = {
	0x0000, 0x0000, 0x0000, 0x0000, 0x0000, 0x0000, 0x0000, 0x0000,
	0x0000, 0x0001, 0x0001, 0x0001, 0x0001, 0x0001, 0x0001, 0x0002,
	0x0002, 0x0002, 0x0002, 0x0003, 0x0003, 0x0003, 0x0004, 0x0004,
	0x0004, 0x0005, 0x0005, 0x0005, 0x0005, 0x0005, 0x0005, 0x0005
};

static const uint32_t param_adr_weight_02_1728_972[32] = {
	0x0000, 0x0000, 0x0000, 0x0000, 0x0000, 0x0000, 0x0000, 0x0000,
	0x0000, 0x0000, 0x0000, 0x0000, 0x0000, 0x0001, 0x0001, 0x0001,
	0x0001, 0x0001, 0x0001, 0x0001, 0x0002, 0x0002, 0x0002, 0x0002,
	0x0002, 0x0002, 0x0002, 0x0002, 0x0002, 0x0002, 0x0002, 0x0002
};

static const uint32_t param_adr_weight_12_1728_972[32] = {
	0x0000, 0x0000, 0x0000, 0x0000, 0x0000, 0x0000, 0x0000, 0x0000,
	0x0000, 0x0000, 0x0001, 0x0001, 0x0001, 0x0001, 0x0001, 0x0001,
	0x0001, 0x0001, 0x0002, 0x0002, 0x0002, 0x0002, 0x0002, 0x0002,
	0x0002, 0x0002, 0x0002, 0x0002, 0x0002, 0x0002, 0x0002, 0x0002
};

static const uint32_t param_adr_weight_22_1728_972[32] = {
	0x0000, 0x0000, 0x0000, 0x0000, 0x0000, 0x0000, 0x0000, 0x0000,
	0x0000, 0x0000, 0x0000, 0x0000, 0x0000, 0x0000, 0x0000, 0x0000,
	0x0000, 0x0000, 0x0000, 0x0000, 0x0000, 0x0000, 0x0000, 0x0000,
	0x0000, 0x0000, 0x0000, 0x0000, 0x0000, 0x0000, 0x0000, 0x0000
};

static const uint32_t param_adr_weight_21_1728_972[32] = {
	0x0000, 0x0000, 0x0000, 0x0000, 0x0000, 0x0000, 0x0001, 0x0001,
	0x0001, 0x0001, 0x0001, 0x0001, 0x0002, 0x0002, 0x0002, 0x0002,
	0x0003, 0x0003, 0x0003, 0x0004, 0x0004, 0x0004, 0x0004, 0x0004,
	0x0004, 0x0004, 0x0004, 0x0004, 0x0004, 0x0004, 0x0004, 0x0004
};

/* ============ 1080_1440 ============ */

static const uint32_t param_adr_centre_w_dis_1080_1440[31] = {
	0x145b, 0x0ef0, 0x0c6b, 0x0ac2, 0x0985, 0x0887, 0x07b4, 0x0700,
	0x0662, 0x05d5, 0x0557, 0x04e4, 0x047b, 0x041a, 0x03bf, 0x036b,
	0x031c, 0x02d2, 0x028c, 0x0249, 0x020a, 0x01ce, 0x0195, 0x015e,
	0x0129, 0x00f7, 0x00c6, 0x0097, 0x006a, 0x003f, 0x0015
};

static const uint32_t param_adr_weight_20_1080_1440[32] = {
	0x0000, 0x0000, 0x0000, 0x0000, 0x0000, 0x0000, 0x0000, 0x0000,
	0x0000, 0x0000, 0x0000, 0x0000, 0x0000, 0x0000, 0x0000, 0x0000,
	0x0000, 0x0001, 0x0001, 0x0001, 0x0001, 0x0001, 0x0001, 0x0001,
	0x0001, 0x0001, 0x0001, 0x0001, 0x0001, 0x0001, 0x0001, 0x0001
};

static const uint32_t param_adr_weight_02_1080_1440[32] = {
	0x0000, 0x0000, 0x0000, 0x0000, 0x0000, 0x0000, 0x0000, 0x0000,
	0x0000, 0x0002, 0x0002, 0x0002, 0x0003, 0x0003, 0x0003, 0x0004,
	0x0004, 0x0005, 0x0006, 0x0006, 0x0007, 0x0007, 0x0008, 0x0009,
	0x0009, 0x000a, 0x000b, 0x000c, 0x000c, 0x000c, 0x000c, 0x000c
};

static const uint32_t param_adr_weight_12_1080_1440[32] = {
	0x0000, 0x0000, 0x0001, 0x0001, 0x0001, 0x0001, 0x0002, 0x0002,
	0x0002, 0x0003, 0x0003, 0x0003, 0x0004, 0x0004, 0x0005, 0x0006,
	0x0006, 0x0007, 0x0008, 0x0008, 0x0008, 0x0008, 0x0008, 0x0008,
	0x0008, 0x0008, 0x0008, 0x0008, 0x0008, 0x0008, 0x0008, 0x0008
};

static const uint32_t param_adr_weight_22_1080_1440[32] = {
	0x0000, 0x0000, 0x0000, 0x0000, 0x0000, 0x0000, 0x0000, 0x0000,
	0x0000, 0x0000, 0x0000, 0x0000, 0x0000, 0x0000, 0x0000, 0x0000,
	0x0000, 0x0000, 0x0000, 0x0000, 0x0000, 0x0000, 0x0000, 0x0000,
	0x0000, 0x0000, 0x0000, 0x0000, 0x0000, 0x0000, 0x0000, 0x0000
};

static const uint32_t param_adr_weight_21_1080_1440[32] = {
	0x0000, 0x0000, 0x0000, 0x0000, 0x0000, 0x0000, 0x0000, 0x0000,
	0x0000, 0x0000, 0x0000, 0x0000, 0x0000, 0x0000, 0x0000, 0x0000,
	0x0001, 0x0001, 0x0001, 0x0001, 0x0001, 0x0001, 0x0001, 0x0001,
	0x0001, 0x0001, 0x0001, 0x0001, 0x0001, 0x0001, 0x0001, 0x0001
};

/* ============ 1072_1440 ============ */

static const uint32_t param_adr_centre_w_dis_1072_1440[31] = {
	0x145b, 0x0ef0, 0x0c6b, 0x0ac2, 0x0985, 0x0887, 0x07b4, 0x0700,
	0x0662, 0x05d5, 0x0557, 0x04e4, 0x047b, 0x041a, 0x03bf, 0x036b,
	0x031c, 0x02d2, 0x028c, 0x0249, 0x020a, 0x01ce, 0x0195, 0x015e,
	0x0129, 0x00f7, 0x00c6, 0x0097, 0x006a, 0x003f, 0x0015
};

static const uint32_t param_adr_weight_20_1072_1440[32] = {
	0x0000, 0x0000, 0x0000, 0x0000, 0x0000, 0x0000, 0x0000, 0x0000,
	0x0000, 0x0000, 0x0000, 0x0000, 0x0000, 0x0000, 0x0000, 0x0000,
	0x0000, 0x0001, 0x0001, 0x0001, 0x0001, 0x0001, 0x0001, 0x0001,
	0x0001, 0x0001, 0x0001, 0x0001, 0x0001, 0x0001, 0x0001, 0x0001
};

static const uint32_t param_adr_weight_02_1072_1440[32] = {
	0x0000, 0x0000, 0x0000, 0x0000, 0x0000, 0x0000, 0x0000, 0x0000,
	0x0000, 0x0002, 0x0002, 0x0002, 0x0003, 0x0003, 0x0003, 0x0004,
	0x0004, 0x0005, 0x0006, 0x0006, 0x0007, 0x0007, 0x0008, 0x0009,
	0x0009, 0x000a, 0x000b, 0x000c, 0x000c, 0x000c, 0x000c, 0x000c
};

static const uint32_t param_adr_weight_12_1072_1440[32] = {
	0x0000, 0x0000, 0x0001, 0x0001, 0x0001, 0x0002, 0x0002, 0x0002,
	0x0003, 0x0003, 0x0003, 0x0004, 0x0004, 0x0005, 0x0005, 0x0006,
	0x0007, 0x0007, 0x0008, 0x0009, 0x0009, 0x0009, 0x0009, 0x0009,
	0x0009, 0x0009, 0x0009, 0x0009, 0x0009, 0x0009, 0x0009, 0x0009
};

static const uint32_t param_adr_weight_22_1072_1440[32] = {
	0x0000, 0x0000, 0x0000, 0x0000, 0x0000, 0x0000, 0x0000, 0x0000,
	0x0000, 0x0000, 0x0000, 0x0000, 0x0000, 0x0000, 0x0000, 0x0000,
	0x0000, 0x0000, 0x0000, 0x0000, 0x0000, 0x0000, 0x0000, 0x0000,
	0x0000, 0x0000, 0x0000, 0x0000, 0x0000, 0x0000, 0x0000, 0x0000
};

static const uint32_t param_adr_weight_21_1072_1440[32] = {
	0x0000, 0x0000, 0x0000, 0x0000, 0x0000, 0x0000, 0x0000, 0x0000,
	0x0000, 0x0000, 0x0000, 0x0000, 0x0000, 0x0000, 0x0000, 0x0000,
	0x0001, 0x0001, 0x0001, 0x0001, 0x0001, 0x0001, 0x0001, 0x0001,
	0x0001, 0x0001, 0x0001, 0x0001, 0x0001, 0x0001, 0x0001, 0x0001
};

/* ============ 1080P (already existed, moved here for consistency) ============ */

static const uint32_t param_adr_centre_w_dis_1080P[31] = {
	0x14c3, 0x0f3c, 0x0caa, 0x0af9, 0x09b5, 0x08b3, 0x07dc, 0x0723,
	0x0682, 0x05f3, 0x0572, 0x04fd, 0x0492, 0x042f, 0x03d3, 0x037d,
	0x032c, 0x02e0, 0x0299, 0x0255, 0x0215, 0x01d7, 0x019d, 0x0165,
	0x012f, 0x00fc, 0x00ca, 0x009a, 0x006c, 0x0040, 0x0015,
};
static const uint32_t param_adr_weight_20_1080P[32] = {
	0, 0, 0, 0, 0, 0, 0, 0, 0, 0,
	1, 1, 1, 1, 1, 1, 2, 2, 2, 2,
	3, 3, 3, 4, 4, 4, 4, 4, 4, 4, 4, 4,
};
static const uint32_t param_adr_weight_02_1080P[32] = {
	0, 0, 0, 0, 0, 0, 0, 0, 0, 0,
	0, 0, 0, 0, 1, 1, 1, 1, 1, 1,
	1, 2, 2, 2, 2, 2, 2, 2, 2, 2, 2, 2,
};
static const uint32_t param_adr_weight_12_1080P[32] = {
	0, 0, 0, 0, 0, 0, 0, 0, 0, 0,
	1, 1, 1, 1, 1, 1, 1, 1, 1, 2,
	2, 2, 2, 2, 2, 2, 2, 2, 2, 2, 2, 2,
};
static const uint32_t param_adr_weight_22_1080P[32] = {
	0, 0, 0, 0, 0, 0, 0, 0, 0, 0,
	0, 0, 0, 0, 0, 0, 0, 0, 0, 0,
	0, 0, 0, 0, 0, 0, 0, 0, 0, 0, 0, 0,
};
static const uint32_t param_adr_weight_21_1080P[32] = {
	0, 0, 0, 0, 0, 0, 0, 1, 1, 1,
	1, 1, 1, 2, 2, 2, 2, 3, 3, 3,
	3, 3, 3, 3, 3, 3, 3, 3, 3, 3, 3, 3,
};
